0000011001000110
0000000011111100
0000111001011100
0000111000001111
0000111001111000
0000101010100001
0000001100001001
0000010100110100
0000101010010001
0000010110111100
1000010001110110
1000000111000001
1000100001101110
0000001000111111
0000101111000100
1001000000111110
1000101110000000
1000101110111100
1000001000011010
0000101111110110
1000100010010110
1000000110100110
1000000011101001
1000000110000001
0000011011011101
