0000011010111101
1000000110101110
1000011100011000
1000000011110100
0000010010111110
0000110100101001
0000111001110101
0000011001000010
1000010011010011
1000001101100110
0000010101110000
0000101111000011
0000001101001111
0000010010010000
0000000101100111
1000010001101010
0000001011111110
1000000011001110
0000010111011100
0000000010100111
0000010110001010
0000001100010000
1000101010101101
1000101001010110
1000011110010110
