memory_initialization_radix=16;
memory_initialization_vector=
61e,
56f,
839c,
85c1,
8bf7,
359,
433,
8211,
8ed1,
8a0d,
8423,
852d,
8653,
81dd,
3c8,
8bce,
8808,
8432,
39c,
6b,
867a,
8598,
8086,
cd,
806a,
83be,
825e,
8001,
82b2,
8386,
ad3,
9f0,
c0b,
ce5,
8093,
8184,
80d1,
84be,
8648,
8bc2,
82d7,
86e6,
8612,
84,
84e6,
8c48,
874d,
81b2,
1cf,
19f,
357,
9e5,
8448,
8a69,
812d,
800a,
86b4,
8598,
253,
1de,
174,
8340,
2a4,
2a1,
83b6,
80b0,
3c8,
4f0,
178,
1aa,
230,
557,
80d3,
80fb,
862f,
8465,
d3,
8883,
8a32,
8476,
fc,
82f9,
8753,
8a26,
167,
1f1,
8397,
8b30,
8838,
8248,
cc,
9155,
8bcd,
82b8,
83b9,
8445,
8537,
801e,
8665,
830d,
19e,
605,
671,
296,
8567,
8547,
8ef4,
84d8,
2a0,
8665,
503,
4ed,
8002,
8237,
100,
341,
5b2,
83c2,
8483,
81b5,
807b,
827c,
1de,
111,
8372,
89cf,
be,
80cc,
84e4,
8709,
8301,
80c4,
82b2,
813b,
80f4,
801b,
ba,
81fb,
1d6,
3ea,
8626,
182,
750,
3f5,
74a,
86a0,
813d,
6c5,
25f,
359,
273,
65d,
abb,
c9f,
d04,
1e6,
b2b,
c84,
6dc,
8026,
601,
84ca,
8426,
5b0,
a93,
85c0,
8331,
b17,
b34,
907,
83d6,
36d,
217,
60,
85a0,
235,
8235,
87de,
8614,
81a6,
86b5,
844f,
b2,
57,
b05,
84e4,
37b,
660,
948,
9c6,
11a,
246,
5c7,
695,
81d,
1d4,
8e,
81,
23c,
8215,
861f,
b4,
81da,
8e74,
43b,
80b9,
8517,
84b4,
46c,
3b6,
784,
839,
e8f,
6a0,
8239,
7f3,
8a1,
a2,
8dda,
8923,
86ad,
91a0,
8862,
714,
316,
2ee,
263,
324,
8b,
43e,
8373,
7d,
e6,
366,
794,
18e,
23c,
804c,
48b,
8f0,
9a0,
a37,
619,
8ac,
3d8,
8059,
891,
aba,
91c,
671,
214,
153,
2b7,
346,
14a,
824d,
1fd,
476,
8128,
2f4,
8038,
438,
7e4,
89a,
208,
8374,
3b,
4f3,
68,
84ee,
35c,
343,
5a9,
8544,
864d,
3a8,
80a7,
8cc8,
931e,
906b,
26e,
81d3,
84d6,
892c,
8f3a,
866e,
806a,
827d,
886f,
8206,
520,
35b,
115,
bd,
2ee,
33b,
26a,
8337,
1b0,
718,
6c,
73b,
112,
88ad,
88ad,
803f,
2ce,
82ba,
8bbf,
8157,
605,
85b1,
8976,
8119,
8706,
1a3,
8560,
228,
5d4,
8293,
8849,
8048,
1c,
3bb,
3d6,
4a0,
1df,
232,
305,
f1,
80e6,
1f9,
935,
aa5,
6df,
81cb,
fc,
81be,
7a1,
7e8,
834f,
83c1,
465,
179,
89ec,
82e,
698,
b11,
5d5,
1f0,
88b3,
8358,
8557,
8873,
35c,
3e0,
36d,
192,
83b0,
81cf,
82ea,
8153,
787,
846,
217,
8385,
8133,
8430,
65f,
372,
83b3,
83e8,
8820,
8270,
3a7,
9122,
8d0d,
8509,
261,
2e2,
8a73,
8880,
8180,
50b,
370,
8afe,
8e69,
86aa,
187,
c50,
8a1e,
85f6,
84cb,
7f5,
ec1,
8401,
8005,
13b,
9f3,
1ec,
