memory_initialization_radix=16;
memory_initialization_vector=
1d7,
e2,
8ac2,
83bc,
8064,
2cb,
3c9,
857a,
81e9,
8509,
4a9,
8252,
882c,
83bc,
814e,
8383,
8520,
8248,
268,
2b1,
8244,
84e8,
8620,
8303,
2b0,
89c4,
87b9,
8317,
830c,
8090,
7b3,
5e3,
5e8,
810,
66b,
82ac,
8267,
d3,
b7,
86e2,
837d,
85d8,
8787,
844d,
894f,
8389,
854d,
81f8,
84d0,
8397,
812c,
2d4,
802,
27e,
872c,
5b,
2a0,
2a0,
8369,
852d,
539,
330,
855d,
81d8,
8585,
8045,
849c,
70,
823d,
80d8,
5b,
45,
69b,
8436,
43a,
84b1,
171,
81c0,
84e2,
86a9,
845d,
642,
973,
8083,
8379,
80c8,
69f,
757,
8414,
84c7,
60f,
64b,
2ac,
8a64,
8290,
8259,
8131,
801e,
8404,
6,
837d,
54b,
3cf,
6ad,
80a5,
8267,
80dc,
83ab,
82c6,
139,
790,
175,
8061,
8058,
86d5,
3b6,
723,
80fb,
8502,
84bb,
221,
73e,
1f2,
81c0,
8352,
13d,
801b,
196,
8265,
8116,
165,
3d7,
392,
332,
5b3,
8318,
41b,
2b,
dd,
1cc,
25,
82d3,
101,
5b,
55a,
8329,
850a,
8185,
f4,
8349,
814,
80c0,
77,
3ce,
2da,
8128,
884d,
83e6,
80e8,
26d,
8593,
8944,
8e6c,
8c0a,
87f1,
876c,
8801,
80e0,
2cd,
330,
8923,
81e7,
45,
db,
81fc,
4f8,
806c,
306,
80ce,
830a,
81d6,
81e6,
8589,
8397,
85cc,
8122,
8310,
8058,
12f,
69,
8372,
80f2,
8344,
249,
4fd,
82e9,
1da,
8129,
170,
8108,
8146,
827e,
58a,
65a,
1f3,
314,
8100,
370,
867c,
863f,
4d3,
71,
29,
326,
da,
81a1,
51f,
4cd,
839c,
8bd0,
4c9,
84f2,
8cba,
8759,
820d,
82ee,
42,
8210,
8177,
51,
80cd,
81d4,
8060,
8008,
2f6,
4bf,
1d,
82f6,
8390,
2bb,
37f,
51a,
80c3,
819d,
23f,
2b4,
36d,
2d5,
389,
23d,
591,
2c5,
350,
2b6,
612,
b7,
8033,
59e,
42b,
81ae,
1c6,
258,
80de,
203,
8319,
8525,
86c9,
859d,
8282,
86e8,
843b,
83ab,
5fa,
8325,
8869,
727,
4b4,
8058,
87b4,
81a5,
21e,
795,
bb,
80e3,
3e5,
87ea,
82a1,
836f,
8384,
3db,
8636,
87,
2bf,
142,
80d3,
362,
f0,
82b4,
8316,
3fb,
8661,
8169,
36a,
a65,
fa,
8354,
8727,
5fd,
5b0,
8ae4,
1cd,
828b,
1d5,
3aa,
8089,
809f,
8396,
326,
4db,
1c8,
8aea,
84bc,
818e,
1d4,
2cc,
8124,
8375,
836b,
88b6,
8122,
8b82,
823c,
826f,
82a2,
8040,
86bd,
8463,
832f,
88d8,
8013,
3a3,
8189,
8276,
a,
ff,
411,
3d1,
732,
6c4,
36d,
69,
8548,
84e0,
8871,
8764,
7e9,
209,
3ae,
652,
8499,
6f,
8063,
387,
936,
82,
87c4,
8405,
8371,
3ba,
964,
81df,
85d7,
8635,
86eb,
1cc,
8298,
8244,
8a13,
850c,
8216,
262,
8159,
88f3,
11f,
1c2,
6c2,
8344,
84da,
8007,
a3,
805,
818f,
86a8,
bc,
24,
193,
2d7,
8047,
1b8,
de,
