memory_initialization_radix=16;
memory_initialization_vector=
8578,
82c5,
1dc,
8330,
89f4,
85d6,
9e,
1c,
89fd,
8406,
8756,
423,
8156,
8912,
386,
884e,
81dd,
83bc,
8496,
34a,
803f,
80d0,
253,
17f,
53e,
ff,
8049,
607,
410,
8046,
161,
786,
4e7,
8123,
e5,
8688,
846b,
8775,
82c6,
85cc,
138,
8470,
8038,
222,
12f,
806c,
32,
88,
233,
da,
145,
83c6,
8155,
4a,
1b7,
824a,
841c,
d4,
4e2,
2a3,
836c,
831a,
42c,
2dd,
84e6,
f3,
289,
244,
85b4,
8732,
183,
8141,
860d,
89a3,
8344,
81ac,
8679,
83b3,
80e7,
1de,
8485,
8349,
174,
8185,
3af,
8023,
8159,
81a6,
61b,
637,
8105,
235,
2fd,
6a7,
317,
85b1,
528,
143,
37c,
84cf,
84a3,
8303,
296,
815e,
801d,
314,
81aa,
857f,
8105,
82e4,
54b,
95,
8061,
84,
809f,
80c4,
367,
207,
354,
82dc,
1ce,
8411,
2b0,
45e,
4c,
80df,
230,
3e4,
51,
8058,
1bc,
15,
82a9,
72,
80ea,
538,
3fe,
111,
3ee,
80,
460,
fb,
8177,
441,
293,
a4,
8138,
8379,
82e3,
80a3,
81f2,
a5,
43a,
41b,
3c,
8690,
872b,
8716,
8922,
89d8,
8c55,
8e21,
86e8,
82ac,
8146,
906f,
882c,
109,
400,
3b8,
835e,
8205,
166,
577,
8038,
113,
f0,
80ec,
6d,
3fb,
8074,
17b,
169,
77,
416,
3fa,
80c8,
284,
b6,
22c,
805e,
80a7,
476,
823c,
8104,
8172,
81de,
81ac,
51,
821a,
8435,
809b,
13c,
395,
2bd,
181,
5c,
8004,
813f,
20d,
208,
630,
354,
56a,
22d,
599,
2af,
84d2,
8960,
8cdd,
808f,
840c,
836d,
81ff,
850f,
fe,
270,
574,
80ae,
30,
29f,
8306,
819a,
233,
313,
80ab,
96,
851e,
8350,
800d,
1ec,
1d2,
600,
11e,
2a4,
81f8,
818e,
470,
14,
80a5,
1c0,
800b,
592,
3da,
8184,
80be,
84cd,
ab,
81b0,
831a,
8575,
831b,
38,
2d9,
1cd,
83f6,
8665,
4c,
84f8,
88b2,
65d,
8e,
3b,
82f7,
8348,
82f9,
8168,
d8,
16b,
8377,
855f,
8423,
813a,
5fc,
8576,
844b,
85c5,
102,
8068,
101,
80b4,
222,
8078,
22e,
1cb,
809a,
8506,
b3,
e8,
10c,
88,
8056,
835b,
84ac,
484,
3f7,
8102,
8502,
820e,
2ca,
7ff,
8360,
8916,
818a,
263,
8122,
857b,
8328,
7d,
49a,
8561,
2f,
8137,
806f,
67c,
8891,
7,
81f0,
825a,
fa,
80f6,
8445,
8810,
13b,
806b,
2aa,
8220,
8298,
8178,
86c6,
215,
414,
8136,
305,
8074,
820,
5c7,
712,
6c4,
37f,
197,
83d8,
16a,
8791,
88e8,
268,
dc,
80c0,
389,
818f,
8271,
76,
537,
4a6,
2c9,
834f,
863a,
822a,
814d,
80fb,
4ae,
17b,
8474,
8179,
8216,
84f9,
162,
425,
13,
81e3,
899f,
8333,
375,
52b,
80b1,
8aae,
824d,
51a,
81cc,
8180,
8af5,
813c,
14d,
8308,
8245,
876d,
83f7,
619,
235,
2,
