memory_initialization_radix=16;
memory_initialization_vector=
5c,
5c9,
81e3,
8626,
40c,
6f7,
578,
86a7,
83f0,
585,
48a,
2e8,
86af,
63,
7c9,
327,
8009,
855f,
6c7,
59c,
5da,
2b5,
a5,
3a3,
8300,
8030,
18d,
80c3,
152,
81f3,
83d6,
846a,
802f,
23e,
2e9,
85c0,
831c,
83b9,
f7,
417,
81c2,
2ab,
260,
8010,
822e,
48b,
354,
3aa,
34d,
80f9,
40c,
8163,
12d,
4d0,
72,
262,
250,
111,
4dd,
38f,
8408,
214,
7e7,
2ec,
865f,
8017,
70b,
16e,
890b,
8550,
22c,
2ce,
82f8,
861c,
4b,
806a,
8069,
2c0,
8238,
80c7,
de,
271,
a,
82,
8140,
836d,
8307,
154,
5b8,
8604,
82ad,
415,
9bb,
a95,
8ef5,
6b1,
2b3,
af3,
666,
8610,
847c,
8404,
85bb,
82c0,
8158,
84ea,
8007,
8025,
8439,
314,
8377,
816c,
820d,
80cc,
d1,
63c,
2e9,
3af,
8460,
839c,
8023,
81d4,
757,
8161,
870c,
9d,
369,
337,
805d,
21f,
388,
8343,
1da,
50c,
1d0,
8641,
8539,
81,
8137,
34,
87de,
87ce,
385,
809f,
107,
810b,
866f,
84fe,
8430,
86d2,
83aa,
86c6,
87,
1cd,
825d,
8b48,
8422,
8bbf,
8ae2,
832f,
8643,
84e7,
8508,
42,
8100,
8130,
3c2,
415,
53b,
8211,
478,
1e6,
81ac,
8044,
81a3,
4fe,
8306,
8232,
374,
801a,
1bb,
810c,
82b1,
4d7,
4fb,
8129,
47a,
3c2,
44,
858e,
816d,
517,
23f,
8609,
8484,
43c,
44d,
8dee,
877b,
8936,
51a,
2b7,
1e1,
4fa,
7c4,
2ac,
60,
4e6,
7d1,
638,
39,
83e2,
7,
80bf,
8b0b,
151,
871e,
8d32,
86af,
149,
842c,
8b69,
8282,
159,
410,
817e,
1bf,
1f8,
15d,
836b,
8153,
8170,
64,
8152,
2c9,
84fd,
83c5,
81ad,
e9,
195,
8629,
84a6,
840f,
102,
82c7,
8793,
83f7,
80c5,
83d8,
8277,
8238,
12b,
76,
8087,
85dc,
83af,
c9,
4b4,
1df,
803e,
80a0,
1f6,
216,
196,
8745,
81c0,
36f,
585,
80ed,
8941,
459,
2f8,
8522,
127,
821f,
8874,
859c,
4e8,
82d2,
34d,
87d2,
10a,
792,
89a7,
372,
802a,
322,
57e,
87d5,
298,
29d,
8349,
8254,
8307,
1d8,
8446,
4b,
1ec,
2b4,
369,
8052,
82a5,
8293,
2e9,
65e,
1e9,
820c,
8016,
6e3,
6cd,
8189,
8512,
42f,
4fe,
677,
84df,
837f,
b9,
3a3,
8012,
83,
143,
15e,
3f5,
80ac,
4b8,
1d8,
80e3,
401,
86ce,
3d9,
26a,
81f0,
826e,
8272,
d1,
848a,
80bb,
8143,
835e,
587,
4aa,
8096,
83bd,
8587,
10b,
84d7,
82c6,
802d,
8509,
8141,
628,
1aa,
11c,
8409,
811e,
13,
31,
130,
827c,
8204,
858f,
8379,
8243,
8388,
8209,
810f,
8584,
81f2,
8159,
80f1,
82,
8089,
81a5,
1e4,
3e2,
725,
48a,
400,
84dc,
288,
a1a,
5a3,
8264,
861f,
1b,
672,
1e8,
85d2,
82a7,
33d,
7d6,
82c9,
8559,
8317,
119,
39b,
83b2,
8470,
8655,
