memory_initialization_radix=16;
memory_initialization_vector=
813d,
607,
8c03,
8928,
820e,
4c8,
8299,
8d19,
bf,
544,
8012,
803c,
821f,
40a,
372,
82ca,
82f0,
8223,
2ee,
81e9,
116,
323,
1d4,
1ea,
813b,
8071,
4a6,
446,
6c0,
395,
8215,
832c,
f6,
8204,
42c,
83ea,
83fe,
8541,
8506,
837d,
317,
314,
1,
8120,
826a,
806a,
7e,
17,
1d8,
86e0,
19,
83ce,
6f5,
5aa,
82f0,
81e7,
41e,
796,
8196,
8ab2,
325,
248,
2da,
8401,
82cc,
180,
80d7,
892f,
8a1e,
81c5,
808c,
8899,
88,
8311,
81c3,
81c4,
1e8,
39a,
4aa,
801b,
2f5,
30d,
5a2,
4b7,
809e,
831d,
802c,
7e6,
542,
8a08,
1d7,
9d,
6b3,
8603,
8de7,
480,
40,
816f,
8821,
8758,
877f,
8435,
803a,
1e5,
8232,
4f1,
1ff,
85d3,
835b,
821c,
1b0,
674,
3b6,
823f,
85d2,
13f,
7c,
37a,
8418,
8260,
8007,
24e,
1f6,
1eb,
2cb,
401,
3a2,
6b,
8006,
cc,
ad,
8316,
8154,
2fb,
2d1,
8415,
8046,
381,
348,
3ba,
86fc,
86bc,
8428,
83ea,
27a,
8394,
86b8,
846a,
8508,
8587,
835f,
8246,
8163,
8472,
84a2,
8b87,
88c9,
8d08,
8483,
8257,
893c,
85fc,
8425,
32d,
43b,
864d,
23d,
32,
415,
301,
8104,
57f,
283,
742,
405,
818e,
81cb,
190,
8056,
81df,
80c3,
82f5,
eb,
3b,
2fd,
8164,
80cd,
8278,
85d7,
1b3,
50,
1eb,
55,
1d7,
3a6,
80db,
27,
8236,
4d,
115,
32e,
8104,
57a,
5e9,
119,
109,
80b1,
261,
8173,
880b,
8377,
8031,
8191,
8268,
8824,
6,
8998,
84f6,
835b,
83c4,
82dd,
81b3,
82c6,
33c,
a4,
81f0,
3d,
1bc,
8302,
81a0,
84f6,
83e2,
845c,
847b,
8020,
20e,
e9,
14d,
81e9,
832a,
802e,
428,
476,
1de,
b4,
8751,
843f,
838e,
84c1,
82b1,
8468,
806e,
257,
83ed,
8052,
8205,
82ff,
8019,
83f8,
8417,
83c4,
82e9,
79,
8679,
8672,
208,
1e0,
8035,
81c7,
8a88,
67f,
443,
8038,
76e,
815c,
81fb,
5c9,
675,
8418,
11d,
864e,
3da,
2fe,
85ea,
814d,
17d,
50,
231,
827c,
436,
8157,
2d2,
3b4,
5,
37e,
811c,
2c3,
8085,
80e1,
8492,
343,
856f,
cb,
60b,
823c,
80f9,
8b95,
25a,
679,
81e2,
82b3,
876b,
8057,
f6,
8005,
8312,
8027,
8247,
368,
43f,
38f,
8286,
83a2,
131,
80b7,
85b4,
8402,
80bf,
81c4,
8494,
82ee,
8789,
83ae,
8809,
827f,
8072,
384,
81c9,
27e,
8171,
234,
683,
516,
47e,
75c,
5e0,
797,
466,
713,
462,
450,
2cf,
346,
3f6,
826f,
1ba,
8048,
4f9,
77e,
5a6,
84e3,
8282,
81b2,
5bf,
63a,
8359,
81d3,
83e7,
84e0,
33c,
5fb,
4a9,
1,
83af,
8312,
81b3,
6f1,
2c,
81ac,
81be,
4af,
7a7,
8323,
83ff,
8666,
3df,
165,
88a3,
8141,
81b0,
189,
4dc,
37,
82a2,
8447,
806f,
43d,
171,
836f,
87ce,
