0000000001011100
0000010111001001
1000000111100011
1000011000100110
0000010000001100
0000011011110111
0000010101111000
1000011010100111
1000001111110000
0000010110000101
0000010010001010
0000001011101000
1000011010101111
0000000001100011
0000011111001001
0000001100100111
1000000000001001
1000010101011111
0000011011000111
0000010110011100
0000010111011010
0000001010110101
0000000010100101
0000001110100011
1000001100000000
1000000000110000
0000000110001101
1000000011000011
0000000101010010
1000000111110011
1000001111010110
1000010001101010
1000000000101111
0000001000111110
0000001011101001
1000010111000000
1000001100011100
1000001110111001
0000000011110111
0000010000010111
1000000111000010
0000001010101011
0000001001100000
1000000000010000
1000001000101110
0000010010001011
0000001101010100
0000001110101010
0000001101001101
1000000011111001
0000010000001100
1000000101100011
0000000100101101
0000010011010000
0000000001110010
0000001001100010
0000001001010000
0000000100010001
0000010011011101
0000001110001111
1000010000001000
0000001000010100
0000011111100111
0000001011101100
1000011001011111
1000000000010111
0000011100001011
0000000101101110
1000100100001011
1000010101010000
0000001000101100
0000001011001110
1000001011111000
1000011000011100
0000000001001011
1000000001101010
1000000001101001
0000001011000000
1000001000111000
1000000011000111
0000000011011110
0000001001110001
0000000000001010
0000000010000010
1000000101000000
1000001101101101
1000001100000111
0000000101010100
0000010110111000
1000011000000100
1000001010101101
0000010000010101
0000100110111011
0000101010010101
1000111011110101
0000011010110001
0000001010110011
0000101011110011
0000011001100110
1000011000010000
1000010001111100
1000010000000100
1000010110111011
1000001011000000
1000000101011000
1000010011101010
1000000000000111
1000000000100101
1000010000111001
0000001100010100
1000001101110111
1000000101101100
1000001000001101
1000000011001100
0000000011010001
0000011000111100
0000001011101001
0000001110101111
1000010001100000
1000001110011100
1000000000100011
1000000111010100
0000011101010111
1000000101100001
1000011100001100
0000000010011101
0000001101101001
0000001100110111
1000000001011101
0000001000011111
0000001110001000
1000001101000011
0000000111011010
0000010100001100
0000000111010000
1000011001000001
1000010100111001
0000000010000001
1000000100110111
0000000000110100
1000011111011110
1000011111001110
0000001110000101
1000000010011111
0000000100000111
1000000100001011
1000011001101111
1000010011111110
1000010000110000
1000011011010010
1000001110101010
1000011011000110
0000000010000111
0000000111001101
1000001001011101
1000101101001000
1000010000100010
1000101110111111
1000101011100010
1000001100101111
1000011001000011
1000010011100111
1000010100001000
0000000001000010
1000000100000000
1000000100110000
0000001111000010
0000010000010101
0000010100111011
1000001000010001
0000010001111000
0000000111100110
1000000110101100
1000000001000100
1000000110100011
0000010011111110
1000001100000110
1000001000110010
0000001101110100
1000000000011010
0000000110111011
1000000100001100
1000001010110001
0000010011010111
0000010011111011
1000000100101001
0000010001111010
0000001111000010
0000000001000100
1000010110001110
1000000101101101
0000010100010111
0000001000111111
1000011000001001
1000010010000100
0000010000111100
0000010001001101
1000110111101110
1000011101111011
1000100100110110
0000010100011010
0000001010110111
0000000111100001
0000010011111010
0000011111000100
0000001010101100
0000000001100000
0000010011100110
0000011111010001
0000011000111000
0000000000111001
1000001111100010
0000000000000111
1000000010111111
1000101100001011
0000000101010001
1000011100011110
1000110100110010
1000011010101111
0000000101001001
1000010000101100
1000101101101001
1000001010000010
0000000101011001
0000010000010000
1000000101111110
0000000110111111
0000000111111000
0000000101011101
1000001101101011
1000000101010011
1000000101110000
0000000001100100
1000000101010010
0000001011001001
1000010011111101
1000001111000101
1000000110101101
0000000011101001
0000000110010101
1000011000101001
1000010010100110
1000010000001111
0000000100000010
1000001011000111
1000011110010011
1000001111110111
1000000011000101
1000001111011000
1000001001110111
1000001000111000
0000000100101011
0000000001110110
1000000010000111
1000010111011100
1000001110101111
0000000011001001
0000010010110100
0000000111011111
1000000000111110
1000000010100000
0000000111110110
0000001000010110
0000000110010110
1000011101000101
1000000111000000
0000001101101111
0000010110000101
1000000011101101
1000100101000001
0000010001011001
0000001011111000
1000010100100010
0000000100100111
1000001000011111
1000100001110100
1000010110011100
0000010011101000
1000001011010010
0000001101001101
1000011111010010
0000000100001010
0000011110010010
1000100110100111
0000001101110010
1000000000101010
0000001100100010
0000010101111110
1000011111010101
0000001010011000
0000001010011101
1000001101001001
1000001001010100
1000001100000111
0000000111011000
1000010001000110
0000000001001011
0000000111101100
0000001010110100
0000001101101001
1000000001010010
1000001010100101
1000001010010011
0000001011101001
0000011001011110
0000000111101001
1000001000001100
1000000000010110
0000011011100011
0000011011001101
1000000110001001
1000010100010010
0000010000101111
0000010011111110
0000011001110111
1000010011011111
1000001101111111
0000000010111001
0000001110100011
1000000000010010
0000000010000011
0000000101000011
0000000101011110
0000001111110101
1000000010101100
0000010010111000
0000000111011000
1000000011100011
0000010000000001
1000011011001110
0000001111011001
0000001001101010
1000000111110000
1000001001101110
1000001001110010
0000000011010001
1000010010001010
1000000010111011
1000000101000011
1000001101011110
0000010110000111
0000010010101010
1000000010010110
1000001110111101
1000010110000111
0000000100001011
1000010011010111
1000001011000110
1000000000101101
1000010100001001
1000000101000001
0000011000101000
0000000110101010
0000000100011100
1000010000001001
1000000100011110
0000000000010011
0000000000110001
0000000100110000
1000001001111100
1000001000000100
1000010110001111
1000001101111001
1000001001000011
1000001110001000
1000001000001001
1000000100001111
1000010110000100
1000000111110010
1000000101011001
1000000011110001
0000000010000010
1000000010001001
1000000110100101
0000000111100100
0000001111100010
0000011100100101
0000010010001010
0000010000000000
1000010011011100
0000001010001000
0000101000011010
0000010110100011
1000001001100100
1000011000011111
0000000000011011
0000011001110010
0000000111101000
1000010111010010
1000001010100111
0000001100111101
0000011111010110
1000001011001001
1000010101011001
1000001100010111
0000000100011001
0000001110011011
1000001110110010
1000010001110000
1000011001010101
