1000000100111101
0000011000000111
1000110000000011
1000100100101000
1000001000001110
0000010011001000
1000001010011001
1000110100011001
0000000010111111
0000010101000100
1000000000010010
1000000000111100
1000001000011111
0000010000001010
0000001101110010
1000001011001010
1000001011110000
1000001000100011
0000001011101110
1000000111101001
0000000100010110
0000001100100011
0000000111010100
0000000111101010
1000000100111011
1000000001110001
0000010010100110
0000010001000110
0000011011000000
0000001110010101
1000001000010101
1000001100101100
0000000011110110
1000001000000100
0000010000101100
1000001111101010
1000001111111110
1000010101000001
1000010100000110
1000001101111101
0000001100010111
0000001100010100
0000000000000001
1000000100100000
1000001001101010
1000000001101010
0000000001111110
0000000000010111
0000000111011000
1000011011100000
0000000000011001
1000001111001110
0000011011110101
0000010110101010
1000001011110000
1000000111100111
0000010000011110
0000011110010110
1000000110010110
1000101010110010
0000001100100101
0000001001001000
0000001011011010
1000010000000001
1000001011001100
0000000110000000
1000000011010111
1000100100101111
1000101000011110
1000000111000101
1000000010001100
1000100010011001
0000000010001000
1000001100010001
1000000111000011
1000000111000100
0000000111101000
0000001110011010
0000010010101010
1000000000011011
0000001011110101
0000001100001101
0000010110100010
0000010010110111
1000000010011110
1000001100011101
1000000000101100
0000011111100110
0000010101000010
1000101000001000
0000000111010111
0000000010011101
0000011010110011
1000011000000011
1000110111100111
0000010010000000
0000000001000000
1000000101101111
1000100000100001
1000011101011000
1000011101111111
1000010000110101
1000000000111010
0000000111100101
1000001000110010
0000010011110001
0000000111111111
1000010111010011
1000001101011011
1000001000011100
0000000110110000
0000011001110100
0000001110110110
1000001000111111
1000010111010010
0000000100111111
0000000001111100
0000001101111010
1000010000011000
1000001001100000
1000000000000111
0000001001001110
0000000111110110
0000000111101011
0000001011001011
0000010000000001
0000001110100010
0000000001101011
1000000000000110
0000000011001100
0000000010101101
1000001100010110
1000000101010100
0000001011111011
0000001011010001
1000010000010101
1000000001000110
0000001110000001
0000001101001000
0000001110111010
1000011011111100
1000011010111100
1000010000101000
1000001111101010
0000001001111010
1000001110010100
1000011010111000
1000010001101010
1000010100001000
1000010110000111
1000001101011111
1000001001000110
1000000101100011
1000010001110010
1000010010100010
1000101110000111
1000100011001001
1000110100001000
1000010010000011
1000001001010111
1000100100111100
1000010111111100
1000010000100101
0000001100101101
0000010000111011
1000011001001101
0000001000111101
0000000000110010
0000010000010101
0000001100000001
1000000100000100
0000010101111111
0000001010000011
0000011101000010
0000010000000101
1000000110001110
1000000111001011
0000000110010000
1000000001010110
1000000111011111
1000000011000011
1000001011110101
0000000011101011
0000000000111011
0000001011111101
1000000101100100
1000000011001101
1000001001111000
1000010111010111
0000000110110011
0000000001010000
0000000111101011
0000000001010101
0000000111010111
0000001110100110
1000000011011011
0000000000100111
1000001000110110
0000000001001101
0000000100010101
0000001100101110
1000000100000100
0000010101111010
0000010111101001
0000000100011001
0000000100001001
1000000010110001
0000001001100001
1000000101110011
1000100000001011
1000001101110111
1000000000110001
1000000110010001
1000001001101000
1000100000100100
0000000000000110
1000100110011000
1000010011110110
1000001101011011
1000001111000100
1000001011011101
1000000110110011
1000001011000110
0000001100111100
0000000010100100
1000000111110000
0000000000111101
0000000110111100
1000001100000010
1000000110100000
1000010011110110
1000001111100010
1000010001011100
1000010001111011
1000000000100000
0000001000001110
0000000011101001
0000000101001101
1000000111101001
1000001100101010
1000000000101110
0000010000101000
0000010001110110
0000000111011110
0000000010110100
1000011101010001
1000010000111111
1000001110001110
1000010011000001
1000001010110001
1000010001101000
1000000001101110
0000001001010111
1000001111101101
1000000001010010
1000001000000101
1000001011111111
1000000000011001
1000001111111000
1000010000010111
1000001111000100
1000001011101001
0000000001111001
1000011001111001
1000011001110010
0000001000001000
0000000111100000
1000000000110101
1000000111000111
1000101010001000
0000011001111111
0000010001000011
1000000000111000
0000011101101110
1000000101011100
1000000111111011
0000010111001001
0000011001110101
1000010000011000
0000000100011101
1000011001001110
0000001111011010
0000001011111110
1000010111101010
1000000101001101
0000000101111101
0000000001010000
0000001000110001
1000001001111100
0000010000110110
1000000101010111
0000001011010010
0000001110110100
0000000000000101
0000001101111110
1000000100011100
0000001011000011
1000000010000101
1000000011100001
1000010010010010
0000001101000011
1000010101101111
0000000011001011
0000011000001011
1000001000111100
1000000011111001
1000101110010101
0000001001011010
0000011001111001
1000000111100010
1000001010110011
1000011101101011
1000000001010111
0000000011110110
1000000000000101
1000001100010010
1000000000100111
1000001001000111
0000001101101000
0000010000111111
0000001110001111
1000001010000110
1000001110100010
0000000100110001
1000000010110111
1000010110110100
1000010000000010
1000000010111111
1000000111000100
1000010010010100
1000001011101110
1000011110001001
1000001110101110
1000100000001001
1000001001111111
1000000001110010
0000001110000100
1000000111001001
0000001001111110
1000000101110001
0000001000110100
0000011010000011
0000010100010110
0000010001111110
0000011101011100
0000010111100000
0000011110010111
0000010001100110
0000011100010011
0000010001100010
0000010001010000
0000001011001111
0000001101000110
0000001111110110
1000001001101111
0000000110111010
1000000001001000
0000010011111001
0000011101111110
0000010110100110
1000010011100011
1000001010000010
1000000110110010
0000010110111111
0000011000111010
1000001101011001
1000000111010011
1000001111100111
1000010011100000
0000001100111100
0000010111111011
0000010010101001
0000000000000001
1000001110101111
1000001100010010
1000000110110011
0000011011110001
0000000000101100
1000000110101100
1000000110111110
0000010010101111
0000011110100111
1000001100100011
1000001111111111
1000011001100110
0000001111011111
0000000101100101
1000100010100011
1000000101000001
1000000110110000
0000000110001001
0000010011011100
0000000000110111
1000001010100010
1000010001000111
1000000001101111
0000010000111101
0000000101110001
1000001101101111
1000011111001110
