0000011000011110
0000010101101111
1000001110011100
1000010111000001
1000101111110111
0000001101011001
0000010000110011
1000001000010001
1000111011010001
1000101000001101
1000010000100011
1000010100101101
1000011001010011
1000000111011101
0000001111001000
1000101111001110
1000100000001000
1000010000110010
0000001110011100
0000000001101011
1000011001111010
1000010110011000
1000000010000110
0000000011001101
1000000001101010
1000001110111110
1000001001011110
1000000000000001
1000001010110010
1000001110000110
0000101011010011
0000100111110000
0000110000001011
0000110011100101
1000000010010011
1000000110000100
1000000011010001
1000010010111110
1000011001001000
1000101111000010
1000001011010111
1000011011100110
1000011000010010
0000000010000100
1000010011100110
1000110001001000
1000011101001101
1000000110110010
0000000111001111
0000000110011111
0000001101010111
0000100111100101
1000010001001000
1000101001101001
1000000100101101
1000000000001010
1000011010110100
1000010110011000
0000001001010011
0000000111011110
0000000101110100
1000001101000000
0000001010100100
0000001010100001
1000001110110110
1000000010110000
0000001111001000
0000010011110000
0000000101111000
0000000110101010
0000001000110000
0000010101010111
1000000011010011
1000000011111011
1000011000101111
1000010001100101
0000000011010011
1000100010000011
1000101000110010
1000010001110110
0000000011111100
1000001011111001
1000011101010011
1000101000100110
0000000101100111
0000000111110001
1000001110010111
1000101100110000
1000100000111000
1000001001001000
0000000011001100
1001000101010101
1000101111001101
1000001010111000
1000001110111001
1000010001000101
1000010100110111
1000000000011110
1000011001100101
1000001100001101
0000000110011110
0000011000000101
0000011001110001
0000001010010110
1000010101100111
1000010101000111
1000111011110100
1000010011011000
0000001010100000
1000011001100101
0000010100000011
0000010011101101
1000000000000010
1000001000110111
0000000100000000
0000001101000001
0000010110110010
1000001111000010
1000010010000011
1000000110110101
1000000001111011
1000001001111100
0000000111011110
0000000100010001
1000001101110010
1000100111001111
0000000010111110
1000000011001100
1000010011100100
1000011100001001
1000001100000001
1000000011000100
1000001010110010
1000000100111011
1000000011110100
1000000000011011
0000000010111010
1000000111111011
0000000111010110
0000001111101010
1000011000100110
0000000110000010
0000011101010000
0000001111110101
0000011101001010
1000011010100000
1000000100111101
0000011011000101
0000001001011111
0000001101011001
0000001001110011
0000011001011101
0000101010111011
0000110010011111
0000110100000100
0000000111100110
0000101100101011
0000110010000100
0000011011011100
1000000000100110
0000011000000001
1000010011001010
1000010000100110
0000010110110000
0000101010010011
1000010111000000
1000001100110001
0000101100010111
0000101100110100
0000100100000111
1000001111010110
0000001101101101
0000001000010111
0000000001100000
1000010110100000
0000001000110101
1000001000110101
1000011111011110
1000011000010100
1000000110100110
1000011010110101
1000010001001111
0000000010110010
0000000001010111
0000101100000101
1000010011100100
0000001101111011
0000011001100000
0000100101001000
0000100111000110
0000000100011010
0000001001000110
0000010111000111
0000011010010101
0000100000011101
0000000111010100
0000000010001110
0000000010000001
0000001000111100
1000001000010101
1000011000011111
0000000010110100
1000000111011010
1000111001110100
0000010000111011
1000000010111001
1000010100010111
1000010010110100
0000010001101100
0000001110110110
0000011110000100
0000100000111001
0000111010001111
0000011010100000
1000001000111001
0000011111110011
0000100010100001
0000000010100010
1000110111011010
1000100100100011
1000011010101101
1001000110100000
1000100001100010
0000011100010100
0000001100010110
0000001011101110
0000001001100011
0000001100100100
0000000010001011
0000010000111110
1000001101110011
0000000001111101
0000000011100110
0000001101100110
0000011110010100
0000000110001110
0000001000111100
1000000001001100
0000010010001011
0000100011110000
0000100110100000
0000101000110111
0000011000011001
0000100010101100
0000001111011000
1000000001011001
0000100010010001
0000101010111010
0000100100011100
0000011001110001
0000001000010100
0000000101010011
0000001010110111
0000001101000110
0000000101001010
1000001001001101
0000000111111101
0000010001110110
1000000100101000
0000001011110100
1000000000111000
0000010000111000
0000011111100100
0000100010011010
0000001000001000
1000001101110100
0000000000111011
0000010011110011
0000000001101000
1000010011101110
0000001101011100
0000001101000011
0000010110101001
1000010101000100
1000011001001101
0000001110101000
1000000010100111
1000110011001000
1001001100011110
1001000001101011
0000001001101110
1000000111010011
1000010011010110
1000100100101100
1000111100111010
1000011001101110
1000000001101010
1000001001111101
1000100001101111
1000001000000110
0000010100100000
0000001101011011
0000000100010101
0000000010111101
0000001011101110
0000001100111011
0000001001101010
1000001100110111
0000000110110000
0000011100011000
0000000001101100
0000011100111011
0000000100010010
1000100010101101
1000100010101101
1000000000111111
0000001011001110
1000001010111010
1000101110111111
1000000101010111
0000011000000101
1000010110110001
1000100101110110
1000000100011001
1000011100000110
0000000110100011
1000010101100000
0000001000101000
0000010111010100
1000001010010011
1000100001001001
1000000001001000
0000000000011100
0000001110111011
0000001111010110
0000010010100000
0000000111011111
0000001000110010
0000001100000101
0000000011110001
1000000011100110
0000000111111001
0000100100110101
0000101010100101
0000011011011111
1000000111001011
0000000011111100
1000000110111110
0000011110100001
0000011111101000
1000001101001111
1000001111000001
0000010001100101
0000000101111001
1000100111101100
0000100000101110
0000011010011000
0000101100010001
0000010111010101
0000000111110000
1000100010110011
1000001101011000
1000010101010111
1000100001110011
0000001101011100
0000001111100000
0000001101101101
0000000110010010
1000001110110000
1000000111001111
1000001011101010
1000000101010011
0000011110000111
0000100001000110
0000001000010111
1000001110000101
1000000100110011
1000010000110000
0000011001011111
0000001101110010
1000001110110011
1000001111101000
1000100000100000
1000001001110000
0000001110100111
1001000100100010
1000110100001101
1000010100001001
0000001001100001
0000001011100010
1000101001110011
1000100010000000
1000000110000000
0000010100001011
0000001101110000
1000101011111110
1000111001101001
1000011010101010
0000000110000111
0000110001010000
1000101000011110
1000010111110110
1000010011001011
0000011111110101
0000111011000001
1000010000000001
1000000000000101
0000000100111011
0000100111110011
0000000111101100
