1000011110100001
1000100001011010
1000000010010000
0000010110010101
0000100001111001
1001000000011010
1000101000011011
0000101000110010
0000101110111100
0000001101100000
1000110011101001
1000000111001110
0000101111111001
0000011110011001
1000001000000110
1000100100111111
0000001000000110
0000101110011100
0000001011010110
0000001101010011
0000000100000011
0000001000010101
0000001110001000
0000011010001101
1000010110000010
