0000000111010111
0000000011100010
1000101011000010
1000001110111100
1000000001100100
0000001011001011
0000001111001001
1000010101111010
1000000111101001
1000010100001001
0000010010101001
1000001001010010
1000100000101100
1000001110111100
1000000101001110
1000001110000011
1000010100100000
1000001001001000
0000001001101000
0000001010110001
1000001001000100
1000010011101000
1000011000100000
1000001100000011
0000001010110000
1000100111000100
1000011110111001
1000001100010111
1000001100001100
1000000010010000
0000011110110011
0000010111100011
0000010111101000
0000100000010000
0000011001101011
1000001010101100
1000001001100111
0000000011010011
0000000010110111
1000011011100010
1000001101111101
1000010111011000
1000011110000111
1000010001001101
1000100101001111
1000001110001001
1000010101001101
1000000111111000
1000010011010000
1000001110010111
1000000100101100
0000001011010100
0000100000000010
0000001001111110
1000011100101100
0000000001011011
0000001010100000
0000001010100000
1000001101101001
1000010100101101
0000010100111001
0000001100110000
1000010101011101
1000000111011000
1000010110000101
1000000001000101
1000010010011100
0000000001110000
1000001000111101
1000000011011000
0000000001011011
0000000001000101
0000011010011011
1000010000110110
0000010000111010
1000010010110001
0000000101110001
1000000111000000
1000010011100010
1000011010101001
1000010001011101
0000011001000010
0000100101110011
1000000010000011
1000001101111001
1000000011001000
0000011010011111
0000011101010111
1000010000010100
1000010011000111
0000011000001111
0000011001001011
0000001010101100
1000101001100100
1000001010010000
1000001001011001
1000000100110001
1000000000011110
1000010000000100
0000000000000110
1000001101111101
0000010101001011
0000001111001111
0000011010101101
1000000010100101
1000001001100111
1000000011011100
1000001110101011
1000001011000110
0000000100111001
0000011110010000
0000000101110101
1000000001100001
1000000001011000
1000011011010101
0000001110110110
0000011100100011
1000000011111011
1000010100000010
1000010010111011
0000001000100001
0000011100111110
0000000111110010
1000000111000000
1000001101010010
0000000100111101
1000000000011011
0000000110010110
1000001001100101
1000000100010110
0000000101100101
0000001111010111
0000001110010010
0000001100110010
0000010110110011
1000001100011000
0000010000011011
0000000000101011
0000000011011101
0000000111001100
0000000000100101
1000001011010011
0000000100000001
0000000001011011
0000010101011010
1000001100101001
1000010100001010
1000000110000101
0000000011110100
1000001101001001
0000100000010100
1000000011000000
0000000001110111
0000001111001110
0000001011011010
1000000100101000
1000100001001101
1000001111100110
1000000011101000
0000001001101101
1000010110010011
1000100101000100
1000111001101100
1000110000001010
1000011111110001
1000011101101100
1000100000000001
1000000011100000
0000001011001101
0000001100110000
1000100100100011
1000000111100111
0000000001000101
0000000011011011
1000000111111100
0000010011111000
1000000001101100
0000001100000110
1000000011001110
1000001100001010
1000000111010110
1000000111100110
1000010110001001
1000001110010111
1000010111001100
1000000100100010
1000001100010000
1000000001011000
0000000100101111
0000000001101001
1000001101110010
1000000011110010
1000001101000100
0000001001001001
0000010011111101
1000001011101001
0000000111011010
1000000100101001
0000000101110000
1000000100001000
1000000101000110
1000001001111110
0000010110001010
0000011001011010
0000000111110011
0000001100010100
1000000100000000
0000001101110000
1000011001111100
1000011000111111
0000010011010011
0000000001110001
0000000000101001
0000001100100110
0000000011011010
1000000110100001
0000010100011111
0000010011001101
1000001110011100
1000101111010000
0000010011001001
1000010011110010
1000110010111010
1000011101011001
1000001000001101
1000001011101110
0000000001000010
1000001000010000
1000000101110111
0000000001010001
1000000011001101
1000000111010100
1000000001100000
1000000000001000
0000001011110110
0000010010111111
0000000000011101
1000001011110110
1000001110010000
0000001010111011
0000001101111111
0000010100011010
1000000011000011
1000000110011101
0000001000111111
0000001010110100
0000001101101101
0000001011010101
0000001110001001
0000001000111101
0000010110010001
0000001011000101
0000001101010000
0000001010110110
0000011000010010
0000000010110111
1000000000110011
0000010110011110
0000010000101011
1000000110101110
0000000111000110
0000001001011000
1000000011011110
0000001000000011
1000001100011001
1000010100100101
1000011011001001
1000010110011101
1000001010000010
1000011011101000
1000010000111011
1000001110101011
0000010111111010
1000001100100101
1000100001101001
0000011100100111
0000010010110100
1000000001011000
1000011110110100
1000000110100101
0000001000011110
0000011110010101
0000000010111011
1000000011100011
0000001111100101
1000011111101010
1000001010100001
1000001101101111
1000001110000100
0000001111011011
1000011000110110
0000000010000111
0000001010111111
0000000101000010
1000000011010011
0000001101100010
0000000011110000
1000001010110100
1000001100010110
0000001111111011
1000011001100001
1000000101101001
0000001101101010
0000101001100101
0000000011111010
1000001101010100
1000011100100111
0000010111111101
0000010110110000
1000101011100100
0000000111001101
1000001010001011
0000000111010101
0000001110101010
1000000010001001
1000000010011111
1000001110010110
0000001100100110
0000010011011011
0000000111001000
1000101011101010
1000010010111100
1000000110001110
0000000111010100
0000001011001100
1000000100100100
1000001101110101
1000001101101011
1000100010110110
1000000100100010
1000101110000010
1000001000111100
1000001001101111
1000001010100010
1000000001000000
1000011010111101
1000010001100011
1000001100101111
1000100011011000
1000000000010011
0000001110100011
1000000110001001
1000001001110110
0000000000001010
0000000011111111
0000010000010001
0000001111010001
0000011100110010
0000011011000100
0000001101101101
0000000001101001
1000010101001000
1000010011100000
1000100001110001
1000011101100100
0000011111101001
0000001000001001
0000001110101110
0000011001010010
1000010010011001
0000000001101111
1000000001100011
0000001110000111
0000100100110110
0000000010000010
1000011111000100
1000010000000101
1000001101110001
0000001110111010
0000100101100100
1000000111011111
1000010111010111
1000011000110101
1000011011101011
0000000111001100
1000001010011000
1000001001000100
1000101000010011
1000010100001100
1000001000010110
0000001001100010
1000000101011001
1000100011110011
0000000100011111
0000000111000010
0000011011000010
1000001101000100
1000010011011010
1000000000000111
0000000010100011
0000100000000101
1000000110001111
1000011010101000
0000000010111100
0000000000100100
0000000110010011
0000001011010111
1000000001000111
0000000110111000
0000000011011110
