0000000001110111
0000010111010111
1000001010100100
1000101001011001
0000000010100110
0000001110111000
0000000110100110
1000100100111100
1000010000000011
0000010011101010
1000000010100111
1000001011000001
1000011010111100
0000001100101001
0000000100011001
0000010011001001
1000010001110000
0000001011011101
0000001101101011
1000000000011110
0000100111100001
0000010111100110
0000001011000101
1000000100000111
1000010101000101
0000001010001010
0000000101101010
0000011001011111
0000011000111000
0000001101001010
1000011101111100
1000010000101000
1000001101011101
1000000100110011
1000001110101000
1000000110111101
1000001000101000
0000001110000011
0000010101101011
0000000111101001
1000000001000100
0000000101000111
0000001001101101
0000000110001011
1000000000111011
0000000010111000
1000001010010000
1000000010000100
1000000100010111
1000010000011101
0000000111000001
0000000111100101
1000000001111100
0000000100101100
1000000011001111
1000001000110111
0000000100100011
0000100000000011
0000001011110010
1000001100111110
0000000110000110
0000011100011101
0000001001000001
1000010100001011
1000101000001001
0000101011110001
0000001000001001
1000011011110101
1000101010000110
1000001111111110
0000101010001100
1000011001000110
1000011101010101
1000000110010111
1000000100110001
1000001111011000
1000000101001001
0000010010111111
1000001000010011
1000000101001011
1000000000011010
1000000001001011
0000001010100000
0000000010011111
1000000100100110
0000000111111011
0000000100100111
0000001001011001
1000001010000101
1000011000111100
0000000011110101
0000011101000101
0000010110001001
1000000110111000
1000110011101010
0000011100111100
0000001111111100
1000000111000101
1000111011111100
1000100001101111
0000010011010101
1000011000101111
1000010111100100
1000010000001110
1000001100010110
0000001101101101
0000001111001010
1000000110101110
1000000010000011
1000001110111100
1000001001101000
0000000000011001
1000000000010000
0000001000001111
1000010001001001
0000001000110001
0000000011111000
0000000100000011
0000001110000011
0000001110100101
1000010111011100
1000001011010111
1000001111110011
1000010000010001
0000010000100000
0000010000001011
1000001010100001
1000000000010001
0000010001010010
0000000011001111
0000000011110111
0000000011010100
1000001100010100
1000001000011001
1000000101000000
1000010111011000
1000011010100011
0000000100000111
0000000000011000
0000100101111110
1000101111000001
1000101110011101
1000001110100001
1000000010011101
0000001010101110
1000001011111010
1000001111000010
1000000110001001
1000001000010010
1000010110110001
1000101011011110
1000100011111101
0000000111101000
0000001000001001
1000001101110101
1000010110111111
1000010011010001
1000010010110100
1000010100001011
0000000011110100
1000110011111011
1000000010111001
0000010111010100
0000100110001011
0000101100000100
0000001101001100
0000010111101111
0000000100011101
0000010111101001
0000010100101000
0000010101011000
1000000010100010
0000001101111011
0000001110001011
0000100101010101
0000001101101111
1000011100001000
1000001110100011
1000001011101000
0000000011110101
1000001100011000
0000000101010110
1000000011101100
0000011111011100
0000010000011001
1000010110110110
0000010011110111
0000011011011101
0000010000101101
0000000000010000
0000001011100100
0000001111100111
1000000011001101
1000001001011100
0000011001101011
0000000011110000
0000000011010100
1000011010011101
1000000111110110
1000001100111111
0000010011111110
1000000000001000
1000001101110111
1000000011011000
0000001111011111
0000001101110101
1000000101100101
0000000011110100
0000011011011000
1000010000101110
0000001100110011
0000000110100011
0000000110001011
1000100000101110
1000010110010110
1000010100001110
1000110111101000
1000011101011011
0000010011110111
0000011011001011
1000001110100001
0000001001110000
0000010110010000
0000010010001101
1000001010101101
0000000010110010
1000000011110011
0000010000010101
0000010101001110
0000000110000101
0000000001101101
0000000000010111
1000001000111011
1000001100011100
0000000111011101
1000001000110010
1000000011110000
0000001001110000
0000000010010010
0000000011011000
1000010111110110
1000001111001000
0000000001101110
0000000001011011
0000010111000010
1000000101001000
1000001011101001
1000011010100001
1000000110010110
1000000110000101
1000011000110001
1000010011000111
1000001001110010
1000000100000101
1000001010111110
1000011010101010
1000000101111101
1000001000001100
1000001111111011
1000001111101111
1000010001111000
1000001010010011
0000000011101010
1000010011010010
1000100111011110
0000011011000011
0000011001111101
1000001000001110
0000001011001011
1000001011000001
0000101001000001
0000010100101000
0000010011110111
0000001100010101
0000010101101011
1000011011101101
0000000000110000
0000001011010101
1000010111111101
0000000001110110
1000011001001110
1000001110011111
0000000011011000
1000010111010101
0000001010111000
0000000110010011
0000001100011111
1000001111111110
0000000000100010
0000010000011101
1000000001010111
0000000100011100
0000001101001000
0000010100000000
0000011000111100
1000001101100000
1000000110001110
0000001000010000
0000001110011110
1000010010100010
0000010000001110
0000001110101001
1000000111000100
1000000101101011
0000000011101001
0000010110010001
1000001000000100
1000001011001001
0000001101001001
1000000101010101
1000001110110101
1000011100101000
0000000110101110
0000000110111101
1000010000111011
1000010101000101
1000000100111111
0000001000010100
1000001001000000
1000001011101101
0000100101110110
0000001011010100
1000001000010110
1000000101001111
1000001111001110
1000010001001111
1000010011111100
1000010100100100
1000011100000100
1000011000010101
0000010111100110
1000001011111010
1000010011001000
1000010111101111
1000010000000100
0000001011000110
0000011010011111
0000010011010111
0000000100110101
1000000111100010
0000000110101000
0000011111010100
0000011110111101
1000000001010100
0000000011101110
1000010111000000
1000000101010100
1000000000000010
0000010100110100
1000010100101010
0000001111000000
0000010100101001
0000001101000100
0000001000010001
0000010000111111
0000000010110011
1000000100100111
0000000110011101
0000010101110001
0000010001111110
1000010111100100
1000100110111010
1000001010001010
1000001001010000
1000000100011101
1000000011000111
1000001101110011
1000010101110010
1000001110110110
1000011001001010
0000010000001101
0000001001011010
0000011001001011
0000011101100011
1000000010111100
1000010010000110
0000000111100101
0000011011000111
0000001000011111
1000001000101110
1000000000101110
0000100000110101
0000000111011010
1000010011000110
1000010000001010
0000001001010000
0000000110001101
1000011101001101
1000000110111011
1000000111010001
1000010010001101
1000001110100100
1000010100010100
0000001101010100
1000000011010111
1000100101111000
1000010101001110
0000000110000011
0000100100001001
1000001111111001
