memory_initialization_radix=16;
memory_initialization_vector=
77,
5d7,
82a4,
8a59,
a6,
3b8,
1a6,
893c,
8403,
4ea,
80a7,
82c1,
86bc,
329,
119,
4c9,
8470,
2dd,
36b,
801e,
9e1,
5e6,
2c5,
8107,
8545,
28a,
16a,
65f,
638,
34a,
877c,
8428,
835d,
8133,
83a8,
81bd,
8228,
383,
56b,
1e9,
8044,
147,
26d,
18b,
803b,
b8,
8290,
8084,
8117,
841d,
1c1,
1e5,
807c,
12c,
80cf,
8237,
123,
803,
2f2,
833e,
186,
71d,
241,
850b,
8a09,
af1,
209,
86f5,
8a86,
83fe,
a8c,
8646,
8755,
8197,
8131,
83d8,
8149,
4bf,
8213,
814b,
801a,
804b,
2a0,
9f,
8126,
1fb,
127,
259,
8285,
863c,
f5,
745,
589,
81b8,
8cea,
73c,
3fc,
81c5,
8efc,
886f,
4d5,
862f,
85e4,
840e,
8316,
36d,
3ca,
81ae,
8083,
83bc,
8268,
19,
8010,
20f,
8449,
231,
f8,
103,
383,
3a5,
85dc,
82d7,
83f3,
8411,
420,
40b,
82a1,
8011,
452,
cf,
f7,
d4,
8314,
8219,
8140,
85d8,
86a3,
107,
18,
97e,
8bc1,
8b9d,
83a1,
809d,
2ae,
82fa,
83c2,
8189,
8212,
85b1,
8ade,
88fd,
1e8,
209,
8375,
85bf,
84d1,
84b4,
850b,
f4,
8cfb,
80b9,
5d4,
98b,
b04,
34c,
5ef,
11d,
5e9,
528,
558,
80a2,
37b,
38b,
955,
36f,
8708,
83a3,
82e8,
f5,
8318,
156,
80ec,
7dc,
419,
85b6,
4f7,
6dd,
42d,
10,
2e4,
3e7,
80cd,
825c,
66b,
f0,
d4,
869d,
81f6,
833f,
4fe,
8008,
8377,
80d8,
3df,
375,
8165,
f4,
6d8,
842e,
333,
1a3,
18b,
882e,
8596,
850e,
8de8,
875b,
4f7,
6cb,
83a1,
270,
590,
48d,
82ad,
b2,
80f3,
415,
54e,
185,
6d,
17,
823b,
831c,
1dd,
8232,
80f0,
270,
92,
d8,
85f6,
83c8,
6e,
5b,
5c2,
8148,
82e9,
86a1,
8196,
8185,
8631,
84c7,
8272,
8105,
82be,
86aa,
817d,
820c,
83fb,
83ef,
8478,
8293,
ea,
84d2,
89de,
6c3,
67d,
820e,
2cb,
82c1,
a41,
528,
4f7,
315,
56b,
86ed,
30,
2d5,
85fd,
76,
864e,
839f,
d8,
85d5,
2b8,
193,
31f,
83fe,
22,
41d,
8057,
11c,
348,
500,
63c,
8360,
818e,
210,
39e,
84a2,
40e,
3a9,
81c4,
816b,
e9,
591,
8204,
82c9,
349,
8155,
83b5,
8728,
1ae,
1bd,
843b,
8545,
813f,
214,
8240,
82ed,
976,
2d4,
8216,
814f,
83ce,
844f,
84fc,
8524,
8704,
8615,
5e6,
82fa,
84c8,
85ef,
8404,
2c6,
69f,
4d7,
135,
81e2,
1a8,
7d4,
7bd,
8054,
ee,
85c0,
8154,
8002,
534,
852a,
3c0,
529,
344,
211,
43f,
b3,
8127,
19d,
571,
47e,
85e4,
89ba,
828a,
8250,
811d,
80c7,
8373,
8572,
83b6,
864a,
40d,
25a,
64b,
763,
80bc,
8486,
1e5,
6c7,
21f,
822e,
802e,
835,
1da,
84c6,
840a,
250,
18d,
874d,
81bb,
81d1,
848d,
83a4,
8514,
354,
80d7,
8978,
854e,
183,
909,
83f9,
