1000010101111000
1000001011000101
0000000111011100
1000001100110000
1000100111110100
1000010111010110
0000000010011110
0000000000011100
1000100111111101
1000010000000110
1000011101010110
0000010000100011
1000000101010110
1000100100010010
0000001110000110
1000100001001110
1000000111011101
1000001110111100
1000010010010110
0000001101001010
1000000000111111
1000000011010000
0000001001010011
0000000101111111
0000010100111110
0000000011111111
1000000001001001
0000011000000111
0000010000010000
1000000001000110
0000000101100001
0000011110000110
0000010011100111
1000000100100011
0000000011100101
1000011010001000
1000010001101011
1000011101110101
1000001011000110
1000010111001100
0000000100111000
1000010001110000
1000000000111000
0000001000100010
0000000100101111
1000000001101100
0000000000110010
0000000010001000
0000001000110011
0000000011011010
0000000101000101
1000001111000110
1000000101010101
0000000001001010
0000000110110111
1000001001001010
1000010000011100
0000000011010100
0000010011100010
0000001010100011
1000001101101100
1000001100011010
0000010000101100
0000001011011101
1000010011100110
0000000011110011
0000001010001001
0000001001000100
1000010110110100
1000011100110010
0000000110000011
1000000101000001
1000011000001101
1000100110100011
1000001101000100
1000000110101100
1000011001111001
1000001110110011
1000000011100111
0000000111011110
1000010010000101
1000001101001001
0000000101110100
1000000110000101
0000001110101111
1000000000100011
1000000101011001
1000000110100110
0000011000011011
0000011000110111
1000000100000101
0000001000110101
0000001011111101
0000011010100111
0000001100010111
1000010110110001
0000010100101000
0000000101000011
0000001101111100
1000010011001111
1000010010100011
1000001100000011
0000001010010110
1000000101011110
1000000000011101
0000001100010100
1000000110101010
1000010101111111
1000000100000101
1000001011100100
0000010101001011
0000000010010101
1000000001100001
0000000010000100
1000000010011111
1000000011000100
0000001101100111
0000001000000111
0000001101010100
1000001011011100
0000000111001110
1000010000010001
0000001010110000
0000010001011110
0000000001001100
1000000011011111
0000001000110000
0000001111100100
0000000001010001
1000000001011000
0000000110111100
0000000000010101
1000001010101001
0000000001110010
1000000011101010
0000010100111000
0000001111111110
0000000100010001
0000001111101110
0000000010000000
0000010001100000
0000000011111011
1000000101110111
0000010001000001
0000001010010011
0000000010100100
1000000100111000
1000001101111001
1000001011100011
1000000010100011
1000000111110010
0000000010100101
0000010000111010
0000010000011011
0000000000111100
1000011010010000
1000011100101011
1000011100010110
1000100100100010
1000100111011000
1000110001010101
1000111000100001
1000011011101000
1000001010101100
1000000101000110
1001000001101111
1000100000101100
0000000100001001
0000010000000000
0000001110111000
1000001101011110
1000001000000101
0000000101100110
0000010101110111
1000000000111000
0000000100010011
0000000011110000
1000000011101100
0000000001101101
0000001111111011
1000000001110100
0000000101111011
0000000101101001
0000000001110111
0000010000010110
0000001111111010
1000000011001000
0000001010000100
0000000010110110
0000001000101100
1000000001011110
1000000010100111
0000010001110110
1000001000111100
1000000100000100
1000000101110010
1000000111011110
1000000110101100
0000000001010001
1000001000011010
1000010000110101
1000000010011011
0000000100111100
0000001110010101
0000001010111101
0000000110000001
0000000001011100
1000000000000100
1000000100111111
0000001000001101
0000001000001000
0000011000110000
0000001101010100
0000010101101010
0000001000101101
0000010110011001
0000001010101111
1000010011010010
1000100101100000
1000110011011101
1000000010001111
1000010000001100
1000001101101101
1000000111111111
1000010100001111
0000000011111110
0000001001110000
0000010101110100
1000000010101110
0000000000110000
0000001010011111
1000001100000110
1000000110011010
0000001000110011
0000001100010011
1000000010101011
0000000010010110
1000010100011110
1000001101010000
1000000000001101
0000000111101100
0000000111010010
0000011000000000
0000000100011110
0000001010100100
1000000111111000
1000000110001110
0000010001110000
0000000000010100
1000000010100101
0000000111000000
1000000000001011
0000010110010010
0000001111011010
1000000110000100
1000000010111110
1000010011001101
0000000010101011
1000000110110000
1000001100011010
1000010101110101
1000001100011011
0000000000111000
0000001011011001
0000000111001101
1000001111110110
1000011001100101
0000000001001100
1000010011111000
1000100010110010
0000011001011101
0000000010001110
0000000000111011
1000001011110111
1000001101001000
1000001011111001
1000000101101000
0000000011011000
0000000101101011
1000001101110111
1000010101011111
1000010000100011
1000000100111010
0000010111111100
1000010101110110
1000010001001011
1000010111000101
0000000100000010
1000000001101000
0000000100000001
1000000010110100
0000001000100010
1000000001111000
0000001000101110
0000000111001011
1000000010011010
1000010100000110
0000000010110011
0000000011101000
0000000100001100
0000000010001000
1000000001010110
1000001101011011
1000010010101100
0000010010000100
0000001111110111
1000000100000010
1000010100000010
1000001000001110
0000001011001010
0000011111111111
1000001101100000
1000100100010110
1000000110001010
0000001001100011
1000000100100010
1000010101111011
1000001100101000
0000000001111101
0000010010011010
1000010101100001
0000000000101111
1000000100110111
1000000001101111
0000011001111100
1000100010010001
0000000000000111
1000000111110000
1000001001011010
0000000011111010
1000000011110110
1000010001000101
1000100000010000
0000000100111011
1000000001101011
0000001010101010
1000001000100000
1000001010011000
1000000101111000
1000011011000110
0000001000010101
0000010000010100
1000000100110110
0000001100000101
1000000001110100
0000100000100000
0000010111000111
0000011100010010
0000011011000100
0000001101111111
0000000110010111
1000001111011000
0000000101101010
1000011110010001
1000100011101000
0000001001101000
0000000011011100
1000000011000000
0000001110001001
1000000110001111
1000001001110001
0000000001110110
0000010100110111
0000010010100110
0000001011001001
1000001101001111
1000011000111010
1000001000101010
1000000101001101
1000000011111011
0000010010101110
0000000101111011
1000010001110100
1000000101111001
1000001000010110
1000010011111001
0000000101100010
0000010000100101
0000000000010011
1000000111100011
1000100110011111
1000001100110011
0000001101110101
0000010100101011
1000000010110001
1000101010101110
1000001001001101
0000010100011010
1000000111001100
1000000110000000
1000101011110101
1000000100111100
0000000101001101
1000001100001000
1000001001000101
1000011101101101
1000001111110111
0000011000011001
0000001000110101
0000000000000010
