memory_initialization_radix=16;
memory_initialization_vector=
2f7,
81e9,
842b,
2b,
83ba,
8498,
6ee,
823f,
846a,
8885,
818e,
4f6,
1bb,
570,
8397,
436,
2d7,
8418,
81bb,
815e,
2ad,
82d9,
2d6,
281,
8368,
429,
16d,
8086,
827d,
1cd,
8050,
124,
8539,
8384,
81ab,
8201,
4bc,
50e,
35f,
8085,
850d,
81bd,
8464,
8654,
61f,
3cc,
5e3,
97,
8363,
87d3,
8a71,
83d3,
654,
277,
3a0,
80ed,
88bf,
824c,
836f,
8728,
85db,
8250,
68,
244,
114,
846f,
20e,
4e8,
8139,
8b2b,
97,
80d2,
112,
8756,
8028,
199,
8195,
24e,
8195,
291,
20c,
430,
80bf,
62,
80b8,
487,
8286,
82fa,
1bf,
82b5,
2a8,
81e1,
80a9,
81e2,
470,
17c,
86fb,
859e,
835e,
1c,
84ef,
622,
8126,
83ec,
85d7,
1e2,
da,
229,
81d3,
8fd5,
8059,
8190,
85,
8171,
820d,
18c,
191,
806d,
134,
10e,
84b3,
84e3,
8093,
835e,
79b,
8088,
805b,
805f,
466,
8470,
80dc,
4dd,
80d9,
8488,
8e29,
46d,
81bc,
8419,
8398,
8112,
8301,
892f,
2ed,
718,
58d,
319,
51,
84ba,
426,
2d4,
8183,
847c,
826c,
88,
3b6,
b1,
8304,
8567,
9013,
3cd,
426,
8045,
274,
83e6,
1d7,
13,
85ba,
825d,
8687,
1ac,
83a2,
80ea,
82df,
18b,
14d,
8b0e,
5fe,
82e9,
719,
80a2,
8484,
832a,
583,
172,
23f,
d6,
337,
2,
638,
8965,
1ae,
80e9,
80,
8453,
8129,
8363,
81e6,
117,
967a,
a6,
8173,
831c,
506,
8237,
5fb,
123,
336,
1b0,
8245,
50,
3fa,
8cba,
5ea,
160,
8d13,
150,
2b4,
3ac,
86a0,
7c0,
86e0,
48d,
82a2,
809c,
82aa,
147,
4a5,
8111,
851d,
844f,
8403,
192,
347,
3b6,
ee,
8906,
89ce,
911,
d0,
8725,
ccd,
698,
2ba,
8401,
894d,
3a7,
802a,
3c6,
80f,
607,
5f9,
8690,
83e0,
6b,
ce,
84eb,
145,
827a,
8ac0,
9165,
3e9,
c4,
8778,
8759,
8396,
4af,
252,
312,
15f,
819a,
504,
85d3,
827,
8361,
70b,
578,
7f7,
8275,
5b2,
8155,
879,
83f5,
552,
404,
8051,
ce,
6d,
627,
523,
82bd,
8c,
6fb,
37a,
81e5,
9aa,
8595,
c1d,
841e,
8483,
d4,
4d4,
8494,
8606,
a46,
80c0,
f0,
80d6,
251,
8769,
85fe,
442,
812b,
8047,
813d,
6db,
116,
485,
14b,
8094,
640,
83fb,
42d,
827e,
8a9d,
8c7b,
a3,
841b,
80ab,
5b8,
8146,
8202,
815b,
84e5,
103,
8155,
82c5,
346,
ed,
a1,
44f,
599,
8114,
2f7,
3c1,
169,
84fa,
80db,
d0,
180,
862f,
83a8,
8542,
9a,
1af,
879d,
2f0,
350,
82e3,
7bb,
8250,
8beb,
8703,
890b,
8131,
486,
8065,
8034,
465,
86fa,
9134,
8062,
277,
84eb,
75,
282,
87b1,
8107,
8588,
87fd,
89ff,
8fb9,
823c,
8334,
5b0,
27f,
84d1,
835b,
c77,
9f,
4a7,
8107,
1d,
b2f,
81cf,
2ed,
b2,
844c,
7dc,
81ce,
809e,
6b3,
83f6,
2c9,
80b2,
80be,
8252,
553,
80f7,
86d1,
8162,
38e,
816e,
7bd,
8375,
8502,
34c,
72b,
854f,
86b6,
852a,
857d,
7ee,
c24,
856d,
4e6,
828f,
8557,
288,
239,
8160,
87c8,
db,
50c,
869d,
8f4b,
88a6,
8498,
882,
863c,
817b,
4,
8055,
3c8,
59c,
55c,
49a,
85d9,
5c5,
d4,
8216,
26,
790,
81f5,
84f7,
16b,
8051,
7a9,
1c8,
81a1,
81b0,
82c0,
524,
1bb,
81c1,
941,
813f,
431,
2f5,
1f9,
8185,
244,
0,
85d8,
80df,
5a5,
104,
6c4,
81d7,
80eb,
8050,
54a,
8277,
8765,
8159,
842e,
288,
eb,
ff,
1ad,
c1,
8913,
a05,
22d,
2aa,
4f7,
435,
8cac,
81f1,
832a,
878e,
3bf,
222,
9,
6e,
82fb,
51a,
8892,
81ba,
876b,
380,
35,
8130,
81aa,
6c0,
1d9,
82d1,
8610,
80f0,
3e6,
8172,
4f8,
4dc,
c8b,
86e6,
fe,
499,
80,
89db,
81a5,
8125,
152,
822e,
1db,
7bc,
689,
15,
84b9,
43f,
8ed,
86a6,
137,
805a,
5e4,
171,
8b6f,
83f7,
8afd,
80dd,
49f,
380,
86cd,
2bb,
8202,
82e6,
5de,
8117,
81f8,
4,
808a,
869d,
15e,
587,
81f0,
8057,
816f,
810a,
8c5a,
8cb5,
8b85,
83e6,
81f1,
20e,
258,
83f6,
832f,
8534,
8064,
779,
8548,
8c66,
83fa,
1c1,
21a,
2f6,
6af,
47b,
104,
8138,
80f1,
9b1,
81fc,
874c,
232,
9a,
84b9,
28d,
8331,
20,
377,
8206,
44,
8128,
197,
2eb,
839d,
d2,
827d,
820d,
80fe,
817f,
8414,
80ec,
8376,
812f,
8126,
8425,
26a,
b4,
81b,
625,
481,
83a2,
82ff,
818a,
621,
330,
229,
ee,
800b,
88d2,
5cf,
8280,
239,
884c,
813d,
9d5,
551,
70,
88ed,
8272,
1af,
829c,
409,
8494,
84a3,
8548,
2c8,
80ed,
823d,
86da,
82b3,
853b,
850c,
82a5,
892f,
8180,
c2,
583,
2d7,
3d1,
e5,
510,
192,
8284,
66c,
84f5,
8190,
82aa,
8302,
67,
829f,
26b,
44d,
8314,
1fd,
829e,
26b,
315,
82e8,
80b7,
6d,
44,
83d5,
8684,
110,
290,
8193,
39d,
36f,
816d,
8027,
839d,
821b,
574,
bf8,
889,
1a9,
693,
831c,
199,
80a5,
48d,
16b,
691,
4ac,
829c,
4a4,
856b,
8153,
527,
8991,
73,
918,
80a0,
806a,
834f,
291,
83cf,
80fa,
6c5,
757,
314,
1a,
8a46,
8777,
178,
82ac,
37,
4b9,
8292,
8a24,
5e3,
8415,
51,
80ac,
6fc,
804b,
867e,
2,
874b,
b8,
2c2,
84d3,
e,
83a5,
56c,
8159,
8324,
81b1,
836,
3ac,
8045,
525,
2e7,
81f8,
9278,
408,
293,
7cc,
289,
8261,
613,
14e,
8332,
8693,
b11,
923,
fb,
86fd,
771,
8508,
8106,
8087,
4c8,
155,
40,
7b4,
1a9,
8788,
836b,
86b6,
10a,
1a,
8ac9,
8c18,
339,
178,
575,
80ab,
233,
2f7,
8280,
818f,
813b,
8406,
85a0,
8126,
523,
3a6,
8c18,
864f,
3dc,
115,
62b,
184,
8413,
847e,
86b7,
8025,
136,
8627,
56d,
8441,
266,
8435,
84bd,
81b0,
87c9,
9c7,
65e,
31f,
879d,
8b55,
8be8,
c9,
3a7,
8649,
4d7,
810b,
83af,
82c2,
9a,
38,
658,
822e,
82f8,
8100,
647,
62c,
fe,
803,
802b,
8439,
856f,
1df,
891e,
827a,
889a,
66,
2d1,
ee,
87f6,
339,
3b5,
235,
82af,
22,
806b,
81e7,
2cc,
480,
85d2,
2c7,
82af,
8213,
1be,
8f,
80e7,
543,
8103,
4a0,
8ed,
2ca,
ae,
393,
8702,
856a,
1b2,
8094,
875d,
8b23,
84b2,
2fa,
8110,
197,
49a,
8d60,
804d,
7e9,
80a5,
8151,
8366,
8729,
3bd,
104,
8b12,
1f1,
8125,
8656,
8efc,
237,
1d4,
277,
823f,
ac,
27,
835c,
8810,
363,
f3,
364,
80c0,
8242,
8004,
8055,
8c03,
8527,
8275,
83d6,
80b1,
80ea,
823d,
813e,
8a56,
61c,
6,
1c,
8b5d,
86ff,
b5,
802c,
90,
813c,
8482,
860b,
4b8,
8256,
4a2,
d4,
82e9,
8942,
286,
6bf,
477,
89a0,
8252,
269,
3d8,
813c,
8765,
8a4a,
83c5,
827c,
8512,
808d,
10e,
821d,
82ff,
80c0,
85d4,
816e,
71,
89ba,
93a1,
2be,
819b,
17,
846b,
354,
831b,
8024,
2c0,
8359,
8b8,
868,
8617,
57c,
2db,
806d,
200,
239,
82b3,
2fd,
100,
3a2,
355,
20e,
84e7,
8643,
32a,
526,
8b1a,
29,
93,
c7,
812e,
801a,
8821,
485,
26b,
81f8,
55,
1fb,
59,
801e,
846f,
80b4,
874f,
831f,
813b,
5e8,
33f,
512,
80d0,
87d2,
375,
819f,
80eb,
826e,
4fc,
81f4,
85c9,
8841,
33,
804c,
3d6,
8823,
6d6,
a7d,
8cdb,
8854,
8884,
8862,
8a09,
82c2,
32,
5db,
831e,
87ac,
20e,
36d,
31b,
268,
1c9,
8398,
8691,
86de,
8a3c,
85cb,
8518,
8493,
284,
58a,
1b,
8621,
81cd,
50f,
94d2,
8301,
258,
1d0,
859a,
8b09,
821b,
69c,
812c,
2b6,
63f,
220,
81d8,
8ee0,
48,
4b5,
8e1e,
709,
81dd,
868a,
88c3,
8bcb,
a5d,
105,
84c2,
73,
83bf,
75b,
8639,
940f,
b61,
270,
80a3,
6b2,
26f,
632,
824e,
8913,
8e1,
8717,
8139,
820f,
3a9,
166,
1d8,
80e9,
80b1,
8411,
8a82,
80ba,
843c,
8436,
464,
8f45,
152,
68a,
295,
8087,
36d,
86e9,
824c,
140,
80a1,
606,
8d55,
836d,
802f,
8404,
8227,
82ae,
8040,
86c6,
37f,
8a4a,
5cf,
3a9,
435,
153,
28e,
5f0,
8478,
18f,
435,
873f,
8255,
9241,
199,
420,
82d7,
10,
84d3,
652,
20f,
83e1,
a30,
826d,
d,
804a,
1e7,
46b,
1b,
833e,
452,
83a4,
8137,
345,
82b6,
8097,
45d,
66f,
60e,
8681,
6c,
8643,
80be,
8147,
80dc,
8585,
50,
8332,
41,
48a,
812f,
83b9,
674,
2bb,
3d3,
820d,
28e,
299,
8030,
2a8,
19a,
241,
59d,
2c,
5e4,
2ce,
45b,
224,
68d,
219,
8079,
1e,
795,
848f,
199,
82b7,
23e,
8a9e,
839a,
63f,
392,
868f,
7f3,
3c8,
8146,
36e,
112,
80ae,
899,
416,
a0f,
196,
8109,
7d7,
8549,
151,
811e,
111,
433,
8198,
8903,
80d7,
8044,
82c8,
8224,
2d,
80bc,
3a2,
1d0,
d4,
8812,
8469,
31e,
43f,
8102,
612,
8666,
16e,
339,
ec,
289,
83bd,
38,
813c,
82b0,
8def,
36,
85b1,
1fe,
4cb,
8491,
6a8,
8d42,
157,
3,
8373,
4a9,
86a5,
8255,
271,
103,
88c7,
80b4,
846c,
24d,
8439,
d8,
2f7,
83cc,
54d,
63e,
a3,
8821,
8303,
1f1,
bd,
8312,
6f,
859c,
88fa,
86ec,
869e,
b5,
373,
8473,
193,
225,
566,
44b,
855e,
83d0,
8689,
313,
51,
40c,
5f9,
820e,
85d3,
8156,
49c,
32d,
147,
7b6,
26c,
595,
825f,
8bec,
84df,
8103,
81d1,
521,
7ad,
5cc,
4e6,
886d,
875d,
31d,
8295,
3f2,
990,
30c,
80ae,
9314,
8940,
717,
cd7,
ab0,
7ed,
957,
437,
80b0,
8b83,
8212,
5c2,
126,
8056,
82af,
85d3,
8bb1,
8251,
a3,
8980,
812e,
377,
819c,
2dd,
80c5,
40a,
815b,
409,
8040,
166,
4d2,
84e5,
35b,
4e6,
4e,
84a8,
812b,
83b3,
18b,
268,
81cb,
8121,
175,
8159,
308,
859d,
828d,
858b,
8185,
2a2,
2b,
2de,
8062,
818f,
8317,
491,
80ca,
8c36,
aa,
c6,
8336,
bd7,
9f8,
8e54,
862c,
2fc,
755,
8102,
846d,
3bb,
7dd,
8192,
528,
8c0a,
81b3,
81a4,
81fe,
806e,
274,
20e,
819a,
2da,
84bf,
834e,
812a,
778,
5cc,
27a,
82e8,
808c,
5b0,
8226,
87cf,
80d8,
367,
84ef,
8323,
1ef,
8108,
83cd,
83d6,
8542,
516,
80ef,
333,
83db,
cc,
80b1,
8147,
26e,
3c8,
8080,
815e,
1cd,
8119,
819b,
825f,
8230,
2df,
2a4,
8230,
d4,
0,
106,
853f,
87ae,
8034,
810f,
8116,
81b6,
8085,
80be,
8960,
8a6e,
7f,
5df,
fe,
8422,
8287,
fc,
88a6,
8197,
3bf,
50c,
382,
5ee,
809e,
2a0,
8481,
864,
42c,
1e8,
8116,
8445,
227,
66a,
895e,
3aa,
8210,
50a,
3ec,
4a7,
81d0,
49a,
318,
546,
87,
82b3,
8028,
82b1,
3de,
8102,
8304,
50e,
209,
415,
441,
10a,
159,
191,
82a9,
81b5,
174,
b1,
35b,
2ec,
8086,
158,
80d9,
86b4,
83fd,
c3,
175,
81e7,
8594,
720,
800c,
8044,
849e,
13,
cf,
81fa,
810c,
8407,
83a3,
549,
809c,
7eb,
59f,
350,
8b53,
8376,
848c,
276,
8875,
765,
80e7,
834a,
8ad3,
90f3,
e51,
713,
815c,
21,
2fb,
8007,
8598,
1d9,
809a,
17f,
8012,
635,
80ad,
19e,
8027,
8c8c,
72b,
66c,
8a5a,
6ad,
87c5,
82f1,
430,
8258,
2f5,
690,
6fa,
4ef,
8128,
632,
465,
85ef,
2ec,
5f4,
55e,
18e,
8617,
848d,
471,
1017,
8032,
47b,
4ed,
bca,
84ce,
63,
dd,
471,
81b6,
8210,
85bf,
273,
3da,
263,
8765,
83ce,
80e8,
8698,
8641,
8569,
6a,
380,
83cd,
8a79,
3f6,
5cb,
829d,
b3,
82d2,
8477,
880c,
861c,
81bf,
81ca,
85a9,
8121,
83fa,
815b,
681,
8060,
356,
8073,
8374,
80cf,
83fa,
8143,
8682,
81c8,
810a,
4cf,
8302,
2a2,
24e,
8786,
667,
1b4,
4dd,
8122,
80c2,
8093,
83ec,
6,
81a9,
8334,
8795,
841b,
8372,
2ec,
2c0,
83f2,
6fc,
81a5,
895d,
8123,
9149,
189,
2b6,
8260,
858c,
8ef1,
8518,
860d,
8483,
8465,
816d,
8119,
8613,
6f,
81b0,
82f6,
834e,
81f5,
80ce,
84b6,
145,
8772,
30e,
8631,
80d9,
8826,
494,
33b,
81b2,
43e,
57e,
337,
20b,
880a,
12,
806d,
621,
b9,
81f1,
84c4,
2ac,
17c,
87c9,
2b8,
2ef,
2a2,
4c3,
459,
814f,
50f,
46d,
15f,
84fa,
800f,
85c0,
37c,
367,
85e4,
85c9,
82dc,
81ad,
4f7,
8b07,
150,
8ade,
842e,
852f,
89bd,
494,
94e5,
58b,
8bd1,
8181,
8721,
4a4,
3bb,
8be8,
41c,
31a,
855d,
86f1,
823f,
8621,
4d7,
741,
8842,
1e,
2f0,
81a8,
89c3,
53,
845a,
8202,
8126,
43b,
8a50,
829e,
36,
8445,
82ef,
81ec,
8152,
81e0,
4d0,
317,
8259,
80ab,
8b44,
258,
80b8,
8677,
966,
8125,
3e9,
8224,
500,
475,
9000,
241,
ca,
1b0,
52c,
825f,
884f,
d2,
8130,
50,
341,
66e,
87e1,
735,
8ac,
488,
88e9,
289,
8244,
807a,
920,
8432,
8265,
757,
187,
8184,
879c,
5c4,
8122,
4ad,
8457,
81d9,
844f,
47f,
1e8,
40d,
3e8,
835e,
8845,
5b0,
134,
8657,
a3,
26b,
f1,
80cc,
8035,
409,
d0,
222,
82d5,
432,
319,
37a,
8828,
6fe,
252,
255,
16c,
83f,
3e8,
1a,
4c5,
8122,
872,
836b,
838f,
8391,
814b,
18b,
8168,
14a,
82e6,
29d,
8910,
359,
56c,
ec9,
467,
417,
71c,
84bc,
3d2,
611,
242,
8044,
82dd,
5c,
3dd,
85fa,
85e2,
2d7,
8227,
817b,
28b,
128,
44e,
83fd,
82f1,
34c,
81af,
547,
8060,
8366,
8051,
8322,
835a,
8fc,
a6,
314,
821b,
60c,
53,
46,
84a6,
870a,
3d2,
117,
5fb,
840a,
550,
37d,
764,
52,
8163,
315,
83d6,
80af,
8b2c,
868a,
1d3,
1f,
83dd,
82e5,
8353,
781,
1c0,
345,
826c,
897,
5cc,
758,
fb,
227,
3ab,
3b4,
eda,
1ee,
226,
81a9,
1a4,
55b,
83a7,
8272,
2c9,
827f,
82dc,
4a0,
837a,
84e0,
807b,
8382,
859a,
1fc,
8533,
7c9,
8264,
8374,
8398,
79,
4b1,
239,
84bd,
842e,
8078,
8118,
8247,
214,
8381,
81c9,
43e,
809,
40c,
8386,
d6,
17,
855a,
540,
80d2,
1b2,
843f,
4ec,
8124,
3c4,
379,
215,
d,
8122,
371,
8103,
2da,
bb,
8045,
13a,
71f,
b5f,
849a,
89ef,
80d0,
80ca,
8424,
8814,
8256,
8478,
8209,
8451,
84ae,
88eb,
39d,
18d,
30e,
19d,
855a,
bc,
8079,
810d,
873c,
8719,
2ac,
82ef,
344,
8735,
83d8,
81c2,
817c,
45e,
8262,
80a6,
8025,
8163,
6c3,
8308,
8460,
8435,
86c1,
8945,
e,
86e3,
84e8,
661,
8920,
db,
818c,
8167,
163,
6f,
8c3b,
8140,
8f,
85e4,
210,
8d3e,
89e2,
8aed,
45f,
5f0,
742,
86d1,
8154,
84be,
3d9,
8588,
1b,
64b,
889a,
4b5,
3d6,
24d,
2f2,
272,
211,
f5,
868e,
8162,
280,
88af,
8084,
1d8,
39,
296,
84b2,
81ba,
857b,
856c,
8449,
71,
8021,
8065,
4f,
8361,
84a0,
2e6,
84d4,
8869,
8262,
8234,
497,
37,
871e,
8359,
8324,
802a,
619,
39a,
81a4,
8048,
79,
4bf,
82ee,
85c2,
8830,
8262,
368,
80b8,
816a,
5e7,
8528,
5c,
8073,
837a,
841c,
84ae,
8036,
8216,
136,
841b,
8840,
c6,
9813,
38a,
806a,
e,
142,
523,
550,
21a,
81ee,
850e,
1e3,
84c6,
52f,
24,
8ac7,
24e,
87e5,
9f,
80b7,
83e0,
863f,
8400,
31f,
b0,
22e,
be,
5ff,
810c,
368,
83f6,
8828,
468,
508,
3f8,
695,
644,
8524,
1bf,
15,
26c,
24e,
8335,
6c1,
10,
2c5,
421,
2f6,
be3,
629,
89,
503,
84a0,
88d,
373,
172,
8786,
81b7,
8120,
4fb,
2f1,
8351,
84b3,
99,
263,
85c8,
84f4,
8463,
3f2,
12f,
8455,
520,
838c,
84f7,
8640,
4d2,
8015,
4e2,
7c,
84e6,
45,
81c8,
156,
1ff,
8540,
560,
587,
8219,
8257,
81ec,
8382,
b0,
85e7,
27,
1d2,
8028,
8392,
830,
5c3,
30f,
2e,
8761,
8366,
86cc,
3d,
86ee,
5b,
5a2,
8356,
4e2,
153,
8be5,
2e2,
136,
383,
8563,
8310,
8e7f,
84be,
c,
843f,
333,
891c,
82cd,
8a0c,
889f,
3eb,
41,
82ea,
8dc3,
594,
8391,
84d6,
688,
87ed,
819f,
b1c,
82c9,
8834,
8775,
83fe,
8091,
a0,
8ddf,
80c2,
80f1,
2b3,
888a,
608,
1ac,
8570,
865a,
3f9,
80d1,
82c6,
c9,
167,
95,
801f,
942,
869f,
103,
80f4,
159,
2dd,
8242,
5f8,
82d5,
82f0,
84c0,
82c1,
1db,
634,
d6,
87b8,
47b,
805f,
8105,
60,
20e,
5ae,
298,
85cf,
82f5,
890e,
33c,
8fc7,
433,
84dd,
9236,
870e,
4ea,
44,
568,
8263,
8dc4,
8489,
4bb,
51,
8088,
65d,
83c2,
82de,
8196,
879a,
84b1,
80f4,
3d8,
8ee,
446,
251,
ca,
859c,
83f0,
40e,
425,
834b,
85f3,
1e7,
8028,
82be,
3b0,
1e4,
3b7,
80b8,
81ec,
132,
8438,
2b3,
869d,
80e8,
8029,
8096,
89e2,
2c2,
84c1,
3f7,
83d,
71,
8b45,
884a,
81d2,
85d5,
8528,
86cb,
8fbe,
19f,
1c0,
807c,
11b,
8614,
170,
32f,
845e,
458,
8ca3,
1d9,
8e09,
be,
8661,
8ba9,
810c,
84cc,
28a,
104,
80bf,
878f,
2d,
826e,
8649,
9c9,
914f,
8181,
182,
4f3,
1b1,
8127,
95,
826f,
ab,
1a4,
818f,
815b,
71c,
834e,
64e,
8143,
52b,
11,
20b,
2b1,
80a8,
8415,
ec,
201,
81d4,
32,
8f44,
2bb,
8230,
c0,
82ca,
81f1,
739,
8578,
189,
85c7,
8762,
37d,
8223,
81c2,
8625,
8140,
89b3,
8100,
8fc8,
8e3e,
324,
655,
8def,
82d6,
8409,
153,
c9,
39c,
8114,
82ba,
21d,
8295,
8201,
493,
80d8,
43b,
8498,
1c0,
168,
473,
7c1,
640,
25f,
8567,
8435,
4b4,
298,
8031,
43c,
2a5,
292,
279,
317,
1b2,
657,
6a,
42e,
58d,
43d,
519,
813d,
8665,
80f0,
82c5,
8029,
83fd,
da,
15c,
8335,
80a8,
81f8,
85f9,
148,
845d,
8536,
83c1,
787,
87d8,
e7,
628,
8464,
588,
fd,
4a6,
858b,
80d8,
8034,
d4,
3a8,
84ae,
816f,
57d,
8206,
3bf,
5fb,
8c79,
804f,
464,
8164,
4c6,
528,
8195,
80c4,
3ca,
197,
82a9,
927,
8628,
f,
810f,
56,
8828,
4d4,
517,
1a5,
db,
526,
8245,
1ed,
8305,
32,
8131,
3ea,
81e2,
2fe,
8ba2,
869c,
325,
460,
89d4,
881d,
1b8,
871f,
317,
956f,
84de,
23e,
8173,
8283,
52c,
a1,
2bd,
ae,
726,
