1000100111011111
1000100110000001
1001001000011011
1000110000010011
1000011010000111
1000011001101100
1000110100000100
1000110001001001
1000000110100011
0000011110010001
0000011001110010
1000001111110001
0000010111010100
0001000110011010
0000111011100001
0000100101000011
0000110101110110
0001000001101101
0000100100101000
0000001000110100
0000100100111111
0000110000111101
0000101011010110
0000010111001011
1000011101000101
