1000011100011010
1000010010100100
1000001100011001
1000011011101010
1000010011101000
0000010110011001
0000010110111000
0000001000010000
0000100000010100
0000001111000111
0000001000110000
0000010010111011
0000100011001100
0000110001011111
0000011110000101
1000010000110000
0000010000000010
1000010010000110
0000011000001001
0000110010110100
1000111011100010
1000010000011001
0000010001111001
0000110001011101
0000100000101010
