1000000001011000
0000011011110111
0000001011001101
0000011111010001
0000011101000111
0000000101110001
0000100011010100
0000111001000001
0000111100100000
0000100011100100
0000010011000101
0000001111111011
1000000010001110
0000001101010111
0000011101101110
0000000110011110
1000010010101010
1001010000010010
1001000001011000
1000011010101000
1000101110100101
1000111011001010
1000010111001110
1000101010010000
1000010110111100
